1111110111011110011000
1111111011111011110011
1111011110110000110010
1000101000101111100011
1101001011010110110011
1111110010011110111011
1101110100110100110001
1111110001101010010111
1111110011111110010111
1110010101001010011000
1110001110001001110000
1011001111000010001111
0000011100111100000111
1111010010101100011111
1111101001001001011101
1111110010101000010110
1111101000000101010001
1111100101111011100100
1111101101110010101010
1111110011001000110111
1111110011011001100111
1111011100100011001111
1111010000101101101011
1111011011011000010101
1110011000010001100010
1010110100000111111100
1111110101100011111001
1111101110100000001001
1110000100100111010011
1110000001101100000110
1111110101010101100101
1110000011001100001101
1111101110111000011111
1111101101111010100101
1111110111101011110001
1111111010000101000001
1111110100100110101011
1111110011011110011111
1101111111010001111111
1111001101100001011100
1111110010011000000011
1111110110111011011111
1111010111010111100100
1110100111010110110101
1111110100001011110000
1111101011101011000001
1111000010110100011111
1100010000010111101001
1111110001011111011001
1111101110110110101010
1111110011010111010001
1111110001001000101111
1111111010000001011101
1111111001001111001101
1111110111110111010000
1111111001010011110100
1101011111010010101000
1111110111101100101100
1111110010100101100101
1111110011010010000100
1111010010100101100111
1110001110101000011100
1110000110111111100100
1111010000101001100011
1100011101011101100011
1111111000010111010010
1111100011110010000011
1111010100101100101101
1111110111000101000110
1010111100000000011000
1111011101110101100001
1111110101101011011111
1111111001010110001111
1111001111000101101011
0000001001001111000101
1111100100111111001000
1111101111111101100000
1111110001110010010111
1011111011011111110100
1100011011101101110110
1111110100111010011001
1100110000011101011111
1111110100001100000011
1111101100010001101011
1101101010110101000101
1101100110010111110100
1110010111111100101001
1111111001101011110101
1111110000111000100100
1101001000111011001000
1100000010001010010001
1110011111011010111010
1111111101011111011010
1111111001100111000110
1111001111011010100101
1110001001001111001001
1101011110101110001110
1101011001100101010100
1110101011110010011011
1111110001110011100101
1110110000100100001111
1101101010001110011001
1111100010001001110001
1110011100010101001101
1110111111110111100010
1111000001100011011101
1111100101110110000001
1110010100010101010111
1111100001000100010010
1111101001101000110101
0000010000111000111001
1111011111001110100110
1100010111000011111010
1111111011110010001000
1111110001100010110110
0000100001100100110110
1111110100011001101111
1111101100111010010110
1111100101001000111000
1111001100111010101111
1100001010110100110010
1111100101010100100110
1111110110000001001101
1111111010001101110001
1111110111111010100111
1101000100100110010000
1111110100110110010110
1111111011111000011110
1111110011010011111000
1111101101010010010001
1111001110111101100111
1100010001000101100011
1111110111011010111111
1111100110010101111111
1111101110111110011000
1111100100111101011101
1111110011111101010010
1110100001001001011100
1111011110110011001000
1111110100000101001101
1110110011101110110100
1110011110110110110110
1111111010011011010001
1111110111100011101001
1111110001100101101000
1111100000001101100001
1111000001011101100111
1111110010101101110110
1111011001101110110001
1011100001110101001001
1110101111011010110000
1111011110000100111011
1110000100101111001010
1101000111111111010101
1111001111000001011101
1111110001001101001111
1111000101001000011111
1111110110111111000010
1111110011001001011101
1110110111011001001001
1111000101101011011001
1101010011000110111100
1101101111000001111110
1111010110101010101011
1111110001000110110100
1111110100100011001010
1111111011101111000110
1111100001010111011111
1111010100011000110000
1111010101011100010000
1111110001111000101011
1111110010100000100101
1011001001100001111000
1110011011110111011111
1111010000011011011111
1111110010010001010011
1111101010110111101111
1101110101010100101110
1111001001001001010011
1111101100111111110000
1110100110111101011011
1111110111100010111101
1111110101001000100011
1110110011010111000100
1110000011100001111101
1111110100100111011010
0000000011001110101001
1110010100010111111111
1111110101001001111010
1111100011100100000010
1100100100110111100010
1100100001110110101100
1111101011000011101100
1101001110011100100101
1111011011001111100101
1111111011110001011111
1111110110000000101111
1101100111111011010001
1111110001111000011101
1111010010010011111110
1111101111111010001001
1111011111111110001101
1111110100000000101010
1111110010010001000100
0001100111111101110111
1110011000100101110101
1111011100011011011111
1101111100110101110000
1110100101111010000000
1111011111011000110000
1111111001111110110011
1111110000110001111100
1110011000111000111001
1110100101001101101011
1111110001101111110001
1100000011001001001101
1111110100111011010010
1111101101011010010101
1101111001111010101101
0000000101011001011000
1111110100000111010001
1100010101011010010011
1111101001111110001000
1010010001010101010110
1100010000010110010111
1111011111001111010110
1111100011111110011100
1111111101000011101001
1111101111001010101011
1011010100011100001110
1111111000001101110100
1111101110011111000010
1111111100000111111111
1110111101011101010011
1111111000000011101010
1111101111110110010010
1011100100110010010110
1110101110011100010011
1111110010111010110100
1111110011101111110010
1111011111101100011011
1111110001000111010000
1111010100100100000101
1111010111111010101101
1110011010100111001010
1111110000110111100010
1111100001000000111110
1111110100000001010101
1110001100001101110001
0000011010101110111110
1111110001010010110000
1111110110111000010001
1111011101111010001110
1111111011000000111110
1111011010100010101000
1111110010111001011010
